[PAD]
[UNK]
[START]
[END]
!
"
#
$
%
&
'
(
)
*
+
,
-
.
/
0
1
2
3
4
5
6
7
8
9
:
;
<
=
>
?
@
[
\
]
_
`
a
b
c
d
e
f
g
h
i
j
k
l
m
n
o
p
q
r
s
t
u
v
w
x
y
z
|
~
¡
¢
£
¤
¦
§
«
¬
®
°
±
ð
‘
⁄
the
of
and
to
in
that
is
for
on
##s
with
by
it
was
as
he
has
be
you
have
not
his
this
are
from
they
at
an
will
us
but
their
which
all
were
its
government
had
shall
been
said
##ing
them
we
him
people
there
war
who
one
##ed
against
out
your
up
no
film
would
lord
or
party
also
my
political
when
more
into
after
over
only
##d
military
so
me
now
any
if
##ly
about
new
workers
her
these
other
even
##a
world
what
two
state
made
working
##e
she
percent
than
social
do
last
iraq
time
god
then
such
bush
can
##t
class
##n
international
years
israel
before
##i
##er
day
some
being
first
under
like
many
our
because
country
year
economic
president
did
american
between
come
could
minister
house
those
most
came
while
administration
##y
man
000
may
union
democratic
support
tamil
##l
since
socialist
make
well
should
down
##r
go
police
take
national
place
just
son
left
own
both
right
ltte
opposition
election
where
##es
according
films
through
called
sri
king
##m
european
##al
same
another
however
every
forces
crisis
##h
three
part
days
children
took
washington
told
way
public
work
how
india
among
role
end
power
united
went
security
including
states
rights
campaign
parties
hand
foreign
put
land
##o
major
saying
##an
must
let
men
media
say
policy
without
know
already
within
city
french
see
very
great
##ers
back
get
off
financial
east
given
during
good
director
million
##on
countries
ruling
set
give
interests
general
times
trade
german
troops
number
why
much
china
france
far
name
again
europe
am
declared
long
week
former
further
order
indian
##k
next
movement
##u
life
peace
regime
away
action
taken
law
population
iran
struggle
members
prime
army
father
system
brought
north
south
##ting
does
story
oil
##th
here
high
held
attack
past
therefore
lanka
press
court
month
##ment
conditions
used
sep
afghanistan
strike
yet
attacks
program
things
still
middle
policies
officials
following
don
business
itself
iraqi
billion
vote
mass
elections
months
case
call
report
official
##te
germany
done
pakistan
around
meeting
leaders
old
control
four
sent
clear
going
leader
central
congress
##ness
behold
unions
death
force
act
led
face
global
10
##c
re
killed
fact
secretary
based
##ation
nothing
economy
several
too
powers
use
found
become
himself
five
bring
gave
british
david
second
head
means
shooting
want
young
##ic
few
measures
region
chief
elite
thus
nor
neither
thousands
##am
market
together
##p
got
living
directed
nuclear
##g
decision
released
least
announced
present
capitalist
##in
company
themselves
labour
sons
##ion
fire
having
##ted
weapons
jobs
##en
office
rajapakse
israeli
situation
majority
eu
cannot
recent
coalition
until
bank
plans
big
water
ever
un
seen
deal
lankan
result
spoke
governments
agreement
money
20
popular
home
whose
committee
today
need
position
saw
earth
occupation
local
##le
september
##able
little
asked
##ia
growing
group
making
issue
small
##b
able
whom
##ce
might
throughout
##tion
pass
soldiers
defence
return
received
others
full
statement
alliance
hero
talks
council
basis
large
reported
colombo
cut
fight
leadership
possible
main
america
##or
never
whole
##rs
words
politics
release
sarkozy
##ry
despite
##ism
family
march
acting
capital
obama
leading
free
half
protest
##re
important
real
##ity
heart
april
jesus
music
establishment
pay
point
close
britain
top
began
pressure
jvp
areas
##ah
once
presidential
development
parliament
rather
russia
open
students
jerusalem
less
protests
think
known
nations
##0
human
##man
increase
process
produced
thing
heard
##st
front
post
30
armed
question
##us
current
response
##ar
turn
production
near
though
won
15
behind
area
turned
conflict
asia
ago
continued
health
west
##ated
hands
capitalism
six
cuts
demands
thereof
forth
history
form
whether
carried
groups
independent
society
member
due
love
early
##led
wife
line
white
perspective
##ies
november
find
says
side
speak
word
later
along
future
each
plan
##ne
offering
candidate
cities
egypt
moses
##nt
course
demand
fear
judah
news
entire
change
lost
intelligence
best
civil
11
hundreds
doing
coming
imperialism
conference
show
third
##ist
youth
equality
problems
##ive
attempt
involved
weeks
##na
private
provide
sections
direct
site
taking
threat
heroine
service
communist
recently
poor
character
keep
different
seven
##ling
january
cast
##ge
help
budget
sought
terrorism
relations
july
night
banks
sea
particularly
agreed
blair
border
chennai
sinhala
opposed
none
aid
october
decided
democracy
companies
continue
live
dead
function
yesterday
##ts
period
spd
wsws
article
became
##ch
island
building
anti
reports
claims
special
december
chinese
destruction
palestinian
evidence
forced
##ate
hit
wall
round
democrats
instead
brother
supporters
june
air
toward
violence
claimed
hear
voice
##z
shot
rule
##f
responsible
##1
##ai
massive
##ble
invasion
services
hundred
eyes
soon
##um
rise
##ous
vijay
york
100
##5
civilians
look
growth
rajini
soviet
##el
job
refused
stand
##3
above
claim
##ty
federal
immediately
chirac
newspaper
actions
industry
##ent
seeking
families
lives
terrorist
serious
started
previous
february
towards
earlier
eat
offer
food
brothers
millions
necessary
russian
level
increased
gas
anger
##ra
wing
legal
meet
significant
speech
warned
web
aimed
total
##ri
similar
##less
women
##ary
fighting
increasingly
across
base
bourgeois
issued
strategic
largest
reason
august
##se
##2
believe
##ke
basic
12
al
revolution
ve
hold
street
break
##ck
##9
cause
evil
school
masses
revolutionary
2002
nearly
blood
decades
efforts
camp
operations
certain
met
##ter
thousand
telugu
nation
strong
morning
##ng
interest
25
producer
unemployment
poverty
something
comes
wage
bjp
build
expressed
lead
fall
hours
run
tensions
50
daily
imperialist
parliamentary
leave
mother
prepared
rest
university
better
issues
holy
field
##sh
created
various
song
##6
although
failed
northern
beginning
latest
particular
authorities
##da
40
labor
wrote
rightwing
fell
energy
##ful
using
constitution
upon
education
##ian
series
start
added
always
died
investment
alternative
kamal
paris
alone
prevent
republican
written
outside
expected
finance
standards
explained
wages
kumaratunga
either
light
tell
prices
events
strikes
liberation
needs
negotiations
sector
supported
eastern
established
organisation
pakistani
john
daughter
move
seek
collapse
sunday
followed
##ned
information
japan
2004
answered
key
published
##4
bourgeoisie
whatever
operation
defend
fourth
unp
worked
association
musharraf
matter
##la
common
fathers
makes
ground
2003
broad
le
priest
limited
##est
monday
heaven
##ries
visit
hospital
##ur
immediate
organisations
cost
western
ll
stop
clearly
influence
passed
provided
die
moreover
played
thought
forward
corporate
intervention
socialism
works
emergency
##ring
problem
##w
##ya
gone
rate
woman
backed
profit
enough
accused
freedom
board
responsibility
candidates
scenes
almost
department
sharon
2001
century
built
chairman
hussein
joint
send
##ally
nato
calls
demonstrations
noted
criminal
destroyed
markets
##ised
huge
vast
crimes
drive
bill
ministry
##7
joined
##et
##nce
record
greater
stood
##ka
pentagon
ceasefire
lies
likely
signed
stalinist
actor
spending
muslim
australian
demonstration
directly
inside
##v
yes
defense
ready
calling
##ds
final
green
impact
##ta
longer
lot
presence
##id
late
offensive
producers
resistance
taliban
votes
##sing
debt
london
baghdad
##ning
care
concerned
remain
resources
beijing
body
concern
till
wanted
greens
servants
town
regional
##ving
500
##ging
figures
illegal
voters
islamic
title
secret
##ns
complete
insisted
person
reform
stated
victory
politicians
simply
tax
communal
accept
editorial
servant
##ding
spirit
14
carry
de
industrial
##ls
example
independence
letter
senior
anything
allow
paid
share
rejected
demanded
representatives
##8
##x
laid
speaking
opinion
step
raised
hindi
wealth
lack
2007
berlin
widespread
##ating
##ping
price
threatened
consequences
join
questions
bureaucracy
defeat
offered
##at
assault
cia
syria
##red
killing
2006
rupees
18
eelam
actors
establish
strategy
africa
allies
described
especially
cases
low
##ite
officers
reforms
historical
spokesman
include
judge
figure
strength
##ni
appeal
returned
terms
failure
gold
lebanon
rising
clinton
seems
trial
delivered
interview
staff
district
term
terror
wants
trotsky
iranian
allowed
save
short
trying
16
everyone
agenda
commanded
finally
anyone
cinema
running
planned
demanding
reactionary
stage
##ma
child
ten
socalled
##ance
television
true
##tes
13
hard
politically
success
sword
truth
korea
2000
warning
completely
palestinians
per
60
deep
gathered
increasing
lie
mr
saul
##ine
##isation
charges
tamils
##it
hope
200
ministers
solution
australia
centre
commission
knew
summit
houses
largely
##age
answer
##ise
farmers
play
temple
arab
income
resolution
serve
currently
george
justice
soul
authority
corporations
estimated
included
oppose
previously
student
##ct
effort
concerns
fundamental
proposed
book
hindu
investigation
southern
win
republic
arrested
getting
refugees
sign
aim
committed
eight
religious
ajith
##as
manner
prisoners
programme
civilian
really
launched
##ded
acted
attention
goes
openly
rich
discussion
talk
scene
friday
laws
##cy
powerful
supposed
conservative
section
##der
doubt
17
24
assistance
opened
province
wednesday
domestic
management
tens
nationalist
opportunity
##is
directors
employees
destroy
reality
tuesday
access
age
bear
receive
rural
comments
single
assembly
personnel
activities
solomon
higher
imf
##han
burnt
gaza
list
##ors
##ped
bread
executive
agency
facing
sin
pointed
##ities
secure
everything
forms
statements
bombing
mouth
places
quite
remains
welfare
christ
create
facilities
sivaji
##ram
decline
hostility
voted
imposed
jacob
kill
priests
songs
danger
maintain
##de
required
disaster
spoken
altar
door
saddam
##iah
##ss
methods
##hi
husband
jaffna
appeared
asian
##men
##sed
debate
kumar
takes
charge
drink
potential
difficult
##ll
cover
essential
##il
caused
event
fans
loss
backing
victims
gulf
kept
##ton
looking
accepted
team
wars
##les
##tive
changes
continuing
critical
declaring
supreme
##ites
lay
arms
struggles
spread
tv
entered
surya
2008
lcr
camps
deliver
personal
project
revealed
sight
tigers
tried
saturday
ask
funds
mount
giving
joseph
streets
threats
kerry
scale
prison
measure
delhi
indicated
medical
plant
fund
roles
##ged
advanced
auto
mean
needed
##tor
command
moved
repeatedly
congregation
promised
repression
seats
##up
award
benefits
flesh
friends
26
aaron
experience
constitutional
crime
discussions
internationally
liberal
points
changed
electoral
kind
kingdom
##ha
advance
beyond
profits
separate
factory
view
deputy
expression
homes
pa
##om
deaths
howard
immigrants
sure
continues
elected
average
direction
ethnic
injured
prominent
broken
determined
worker
denied
served
evening
responded
2005
enter
happened
layers
##line
##ments
concessions
feet
ordinary
glory
available
incident
dwell
stay
##ible
employers
indeed
aggression
murder
attempts
reached
senate
turkey
americans
gonna
unable
300
believed
effect
showed
##ising
22
star
training
costs
car
ensure
extent
mission
understand
acts
christian
emerged
minority
elements
source
didn
organization
peter
circles
rice
##ish
spain
##cing
##ure
torture
##ial
prior
research
sharp
##ve
institutions
outcome
sources
sun
surely
wave
##out
arrest
bound
justify
poll
heads
hour
losses
produce
qaeda
remained
sanctions
programs
considered
kings
numbers
thursday
militarism
opening
pray
additional
red
##land
##nd
closed
praise
twenty
withdrawal
##ened
cabinet
tabernacle
stars
criticism
date
language
mind
rose
developed
participated
terrorists
affairs
diplomatic
enemies
legislation
reaction
alleged
differences
##ner
peoples
lines
officer
publicly
seeing
attacked
cgt
confirmed
decade
denounced
khan
opponents
schools
waters
##os
stock
##bly
coast
standing
try
##med
citizens
gate
affected
levels
suffered
abroad
ban
conducted
entirely
regard
subject
trisha
chosen
supporting
task
consider
product
quickly
rates
feel
highly
placed
tamilnadu
##ba
existing
read
seized
presented
dollar
immigration
##time
1999
demonstrated
else
ended
silver
##ical
challenge
cooperation
judgment
participate
uk
cdu
fuel
often
planning
version
##ran
associated
born
construction
credit
raise
blessed
chancellor
nevertheless
account
concerning
genuine
involvement
##ki
community
journalists
malayalam
formed
jews
parts
purpose
represents
sides
wrong
georgia
##j
hosts
territory
widely
27
analysis
colonial
ordered
sarath
village
babylon
carrying
results
unit
value
friend
hearing
ravi
significance
##ir
conflicts
lower
simbu
##ol
highest
agencies
extreme
paul
pen
##im
##li
shift
wilderness
##ward
addition
battle
pretext
ties
##ized
21
positions
regions
##sm
##ual
23
natural
wait
aware
fled
proposal
##ie
##va
corruption
drawn
expansion
preparing
supplies
##tic
compared
reasons
sacrifice
announcement
charged
follow
jordan
heavy
reach
republicans
ways
##ant
1990s
impose
sense
wounded
##ul
fighters
ps
##di
ballot
broke
master
ruled
##van
detention
bad
below
contract
attempted
married
substantial
virtually
appear
treatment
understanding
whoever
commented
fears
quarter
respect
aggressive
investors
##ions
assistant
fought
happy
pro
objective
parents
shut
bomb
moscow
##ization
ahead
japanese
lssp
river
trust
vikram
afraid
estate
knowledge
rapidly
station
agree
develop
inquiry
begin
pharaoh
##ence
19
apart
brutal
concluded
filed
road
status
##sa
merely
turning
claiming
initial
rally
##pt
##rd
appointed
lakhs
nature
knows
mighty
someone
vietnam
weekend
##tors
meat
producing
##ps
designed
kashmir
reporters
choice
confidence
mounting
progressive
propaganda
##kar
##pe
appears
girl
individual
plantation
shankar
##ti
##ee
##tha
gives
looked
pension
sentiment
target
##ks
restructuring
singh
spent
black
deficit
promises
traditional
unity
afghan
shiite
##go
covenant
daughters
details
faced
inequality
##ied
audience
image
false
broader
felt
represent
representative
sister
##ious
##king
marriage
##ro
address
detained
fully
inhabitants
possibility
##ay
##tory
apparatus
borders
prophet
rumsfeld
suicide
transport
bailout
enemy
introduced
organizations
seed
firm
navy
vice
bodies
housing
slfp
spanish
worst
career
faith
grand
ii
privatisation
villages
college
host
tsunami
zone
##ations
##ists
##ple
meetings
occupied
plays
regarded
framework
gods
mercy
nine
organised
recession
sold
##ncy
28
deeply
desire
unprecedented
asylum
bases
names
suppress
##ut
tribe
##ration
##ru
disciples
faces
polls
truly
abraham
ongoing
sir
##yan
70
provoked
risk
yourself
interior
settlement
iniquity
remember
study
voting
##ulated
center
certainly
combined
generation
ran
reserves
bitter
chauvinist
listen
mumbai
stopped
watch
actress
considerable
employed
2009
29
400
antiwar
directing
iraqis
principles
##ky
##ms
ability
african
cheap
departed
enormous
leaving
prepare
removed
richard
teachers
behalf
fucking
movements
theatre
violent
##aries
##based
##vi
approach
convention
levites
sheet
turkish
##nan
##ral
cold
deepening
providing
successful
##fied
engaged
fonseka
princes
technology
developing
exchange
initially
visited
yeah
##ga
effectively
inheritance
ram
walk
##rant
1980s
actually
becoming
collaboration
heavily
message
titled
towns
##dy
##ize
cited
debut
mark
involving
offers
eye
protect
supply
vijayakanth
dominated
joshua
##ber
conduct
gdp
greece
magazine
##to
dwelled
proposals
relationship
repeated
##ot
bombs
##hed
##ja
##ties
80
busy
controlled
dance
headed
requires
##ana
##ved
ally
latter
named
amount
discuss
oppressed
seriously
shown
wicked
clean
divisions
please
request
biggest
massacre
phone
schroder
commander
formal
gm
governor
journal
tehran
insurance
looks
relief
unemployed
commercial
impossible
attempting
california
federation
florida
launch
annual
dollars
infrastructure
package
separatist
holding
internal
nationalism
philistines
##ze
1998
attitude
background
dhanush
driven
gets
helped
rivals
##ced
closely
contradictions
fallen
radical
##ad
inevitably
italy
kerala
opposing
##mi
##ming
##raj
##son
35
condemned
draw
generally
aside
detainees
permanent
righteousness
room
stone
coup
gates
humanitarian
idea
upfa
##gal
##rate
avoid
buy
circumstances
combat
document
happen
justified
reduced
solidarity
starring
georgian
lose
muslims
##ud
competition
kurdish
property
remarks
sunni
##ier
begun
captain
employment
safe
angel
austerity
comment
elites
except
rival
taxes
##ces
art
bankruptcy
offerings
##ham
multitude
psg
resulted
##uring
begat
cubits
jeeva
participation
principal
sell
ultimately
worth
arose
firms
intention
oh
wine
dr
includes
sathyaraj
shows
##year
bbc
dependent
pursued
significantly
stands
##ak
##sts
active
adopted
arafat
bringing
burden
filled
prophets
residents
strengthen
train
tree
worse
entitled
reportedly
srikanth
talking
##ain
declaration
fine
probably
sat
treaty
culture
fate
goods
numerous
smote
therein
##ld
desperate
dropped
pensions
sit
##tate
dream
lest
lifted
membership
modern
thanks
write
##thi
1991
dialogue
festival
guarantee
guard
moment
ones
suffering
wedding
wickremesinghe
aftermath
chauvinism
closer
radio
steps
stones
comedy
implications
presidency
stance
##late
audio
bought
fast
fruit
janatha
likewise
##ons
##zed
admitted
angry
arrived
attended
bombings
meant
minutes
paper
partner
signs
assets
cry
poland
remake
bhutto
dangerous
divide
kelly
port
protection
rhetoric
senator
type
writing
##nes
activity
ambassador
assassination
declare
hezbollah
league
lessons
model
represented
suburbs
aims
hardly
mahinda
screenplay
abandoned
confrontation
##cked
chance
connection
cried
currency
heroines
myself
accounts
severe
unf
upa
##ction
##ini
##zing
bore
cultural
exposed
handed
push
testimony
twelve
ameer
hostile
##ered
##way
greek
implement
internet
platform
space
increases
italian
non
allegations
naval
##ening
institute
lived
mani
playing
stability
##ft
appeals
arise
bloody
entry
indication
starting
waiting
couple
entering
factor
loans
material
opel
pipeline
prabhu
balance
brown
explain
gather
maintained
operating
pooja
review
shoot
wake
##chi
##ow
damage
domination
img
remaining
sales
ump
##ably
##let
##ves
completed
merkel
reject
saudi
trouble
##ile
##rating
awards
casualties
creation
drivers
suddenly
temporary
threatening
##bs
##cted
exports
obvious
willing
##ified
##ily
advantage
confronting
cross
euros
favour
foundation
seat
utterly
bus
creating
mainly
network
science
##ler
grounds
sort
##day
##rain
##un
electricity
euro
faction
funding
haiti
innocent
mountains
opposite
ranks
regimes
targets
double
reduce
setting
shortly
ark
block
organized
##he
##ification
hamas
jospin
letters
referendum
amongst
greatest
halt
inflation
minimum
sending
sheep
unclean
compromise
drew
monetary
ship
##bed
##izing
150
falling
nayantara
relatively
summer
thirty
##yearold
90
accompanied
express
formally
super
treasury
##off
##ue
argued
devastating
division
existence
exploitation
implemented
principle
terrible
##down
decisions
favor
search
wisdom
gain
individuals
powell
protesters
stalinism
uranium
wish
demonstrators
href
kosovo
maybe
michael
onto
original
valley
##res
amid
courts
heroes
mention
##ip
##ire
##rich
breaking
industries
praised
suggested
table
##do
approval
cell
clothes
dictatorship
expect
fields
height
jacques
judges
self
striking
vajpayee
##bility
##ury
church
co
compelled
contrary
dispute
moving
refugee
robert
sake
sins
trees
##cate
benefit
billions
contracts
contrast
raja
split
urban
witnesses
extremist
##ched
##cs
beast
defended
dismissed
safety
uaw
undermine
##gar
##hu
##ny
compensation
ears
importance
lawyer
urged
channel
corrupt
divided
escape
intended
remove
smaller
struck
##table
1970s
fan
featuring
nicolas
provides
regarding
understood
weight
yourselves
##ard
75
chamber
cheney
invited
orders
perhaps
##alai
##hold
asin
avm
bid
crores
elders
madhavan
slain
thereby
vessels
wise
worldwide
##als
##ung
camera
fired
hopes
payments
slew
vadivelu
##ore
congressional
hotel
pacific
##ff
##ify
ambitions
brass
generations
gujarat
proved
seeks
subsidies
usual
##berg
##shed
##stic
##ulate
alive
fischer
khushboo
posed
pursue
reign
rejoice
restrictions
600
agents
argument
articles
caught
cutting
ignored
protracted
prove
stressed
views
wide
withdraw
##me
1995
appearance
degree
deliberately
extremely
fifth
hall
headquarters
images
posts
putting
speaks
style
bala
drop
ephraim
expense
pcf
relatives
sneha
suryah
twentieth
underlying
wood
##old
##que
attend
goal
joy
marked
prospect
elsewhere
fail
militant
trillion
villain
welcomed
##ach
##back
##cies
actresses
barely
bengal
benjamin
crowd
discontent
guilty
peramuna
screened
walked
witness
informed
persons
rules
standard
##lt
##ust
complex
criticised
doesn
estimates
la
npa
progress
stayed
##are
##gs
composer
covered
effective
fifty
focus
processes
size
continent
documents
extra
hey
jewish
keeping
larger
okay
permission
righteous
sees
capacity
extended
hospitals
scheduled
threatens
wealthy
dialogues
encouraged
factories
fascist
korean
offices
pieces
prakashraj
showing
sing
speaker
surrounding
##lly
1997
dias
killings
kilometres
moves
provincial
risen
##els
##fully
##ole
capable
decide
defending
fishermen
forty
hong
isolated
moab
preparations
promise
reigned
unrest
workforce
##ert
andhra
betrayal
counsel
discussed
subcontinent
tribal
trip
##bi
##ey
##ice
##one
##pped
##wa
bit
centres
context
dozens
english
eruption
exercise
fallujah
insisting
precisely
quoted
renewed
suffer
##ok
abbas
amounts
conclusion
doors
immigrant
vimukthi
45
chemical
condition
deployment
environment
factions
screen
sets
throne
tony
##hood
##ray
foot
hunger
kong
lafontaine
mayor
namitha
piece
profound
rock
##lled
cheran
meanwhile
missiles
sorry
totally
vehicles
##em
##lies
cash
encourage
feast
##ath
##fy
establishing
exploit
impoverished
marxist
missile
pledged
wind
##iya
allowing
blamed
buried
commissioner
lift
partners
rehman
sound
1930s
catastrophe
guardian
saved
surprise
timor
units
##rated
##tions
1989
700
abu
counter
emergence
loan
nader
plants
recognition
rescue
values
vishal
31
businesses
choose
exist
formation
herself
iaea
sharply
shock
##ans
arm
banking
canada
cpm
flee
unite
blind
climate
content
delegates
desolate
govt
intensified
managed
resignation
stalinists
subsequent
##end
achieve
commitment
democrat
doctors
escalation
happening
journalist
oppression
registered
stories
##af
abuse
frana
immense
lyrics
occurred
portion
putin
reserve
wrath
##ator
blow
cattle
data
feared
hell
mountain
require
scientific
targeted
##ade
##op
approached
difference
equal
overseas
proof
##lated
airport
asking
burn
gandhi
guy
reference
silence
##den
experiences
manufacturing
railway
winning
boycott
confronted
cwc
extraordinary
incidents
james
motion
owned
polish
proclaimed
slaughter
sovereignty
treated
##lished
aircraft
atmosphere
boy
export
gains
greatly
helping
hide
orientation
rapid
salvation
seem
somewhat
trotskyist
##cking
##gan
##oth
complained
nazi
overwhelming
owners
petition
practice
pushed
sick
territories
feature
geneva
intense
iron
latin
net
toll
unless
waged
windows
##ability
##ators
##dan
##za
ceylon
dangers
equipment
fiscal
gathering
identified
structure
thankar
vital
##ians
##ked
##ory
##ron
##tain
250
definitely
demonstrate
deployed
granted
initiative
provocative
receiving
score
sufficient
suspects
##fe
##kumar
##ult
##vation
atrocities
buildings
commandments
composed
daniel
deals
explosive
resulting
retirement
vision
##ates
cpi
darkness
launching
race
salary
tomorrow
van
##tle
acknowledged
attacking
brings
crucial
editor
empty
erupted
historic
loved
samuel
villagers
##oke
complaint
contact
fame
fundamentalist
gross
legitimate
mps
newspapers
racist
range
roots
##ets
##held
##we
believes
contest
famous
foundations
matters
numbered
thinking
##right
contempt
executives
jeremiah
manasseh
prosecution
religion
tanks
twice
##ema
##ters
banned
burned
confusion
easy
gautham
hearts
honor
necessity
officially
recall
spot
stalin
thrown
wherein
zones
##all
##ef
##mous
##rian
developments
grave
integration
monde
narrow
seventh
similarly
speculation
vivek
##era
accord
appealed
ends
eventually
simon
specific
##ap
##ide
##istic
##mon
adding
coverage
fishing
fraud
hitler
intervene
neo
overall
overthrow
requested
retired
telling
theatres
writer
zion
##per
addressed
alongside
extensive
founded
logic
moral
newly
obtained
rain
raising
referring
resolve
session
##ents
##ering
##gation
##ited
##ji
agricultural
districts
exploited
extend
forget
note
paine
peasants
provinces
refusal
##arian
##rus
##uted
achieved
arya
bottom
captured
ending
fresh
losing
meera
possess
reaching
riot
sudan
teach
usually
##cks
draft
fat
links
minute
overcome
possession
sabbath
shares
sleep
wives
writes
##co
##rry
club
consciousness
economies
interim
jean
notice
provoke
royal
sanctuary
##kam
##lam
##war
beside
books
corporation
fair
hollywood
raffarin
reflects
square
strongly
anniversary
crew
failing
fed
fee
holds
linked
path
proceedings
reflected
threaten
travel
tribes
##mark
##pathy
##rc
##ric
##ub
##ver
##ying
becomes
blame
commandment
confront
conscious
extremists
icfi
isaac
joining
dozen
economist
incapable
indonesia
peninsula
rebels
referred
senthil
sweet
##ners
##q
approximately
deny
disease
hill
pp
promoted
reacted
signatures
##du
##esh
##her
ali
brief
collective
grown
layer
occasion
prevented
pushing
replaced
statutes
thugs
tragedy
##ph
2010
grow
jonathan
nomination
publication
reporter
standpoint
##controlled
##lle
boost
fashion
nadu
notorious
ukraine
weak
##ag
##ep
1994
heathen
initiated
intensify
jail
lawyers
militia
postwar
pressing
proven
runs
theory
younger
##ali
##ative
##che
##my
absolutely
beasts
bollywood
clashes
commit
delay
driving
happens
negotiated
proceed
recovery
scheme
sitting
stake
waste
welcome
wonder
##ala
##hip
##lling
##tered
##ute
closure
doctrine
identity
islands
marched
poorest
prince
regulations
stem
telephone
##dge
##ound
assist
commentators
dealt
difficulties
forcing
hegemony
pradesh
preparation
systems
unilateral
##iate
##room
decent
decisive
declined
enterprises
exactly
feed
hurt
ois
paying
purposes
reagan
relation
strange
wishes
##ished
##lating
##mer
attorney
criticisms
deva
dust
neighbouring
survey
##11
##nal
allegedly
check
militants
option
pure
scientists
##be
##eth
##ley
accusing
birthday
delegation
displaced
era
essentially
facts
floor
globe
inevitable
islamabad
malaysia
persian
provisions
questioned
regular
respond
tribunal
##ens
##ob
##rist
1996
apparently
causes
hair
haven
kannada
tough
viewed
##ess
##had
##une
captivity
fulfilled
joab
learn
obtain
otherwise
sentiments
successive
thoroughly
usled
##file
##pa
##ude
allied
burning
expectations
follows
hezekiah
repressive
roads
samaria
worship
##ges
##ures
citing
embassy
emerging
explanation
file
internationalist
limit
nepal
promote
reduction
urge
##ese
##ines
##wing
800
aristide
branches
censor
donald
experts
finished
hoped
humanity
located
madurai
professor
reporting
restore
schedule
strengthened
supporter
suppression
touch
wider
##ique
##lor
##row
arjun
baby
bow
defeated
governing
los
lying
outright
poured
protesting
submitted
tna
upper
##jan
##och
##ured
ass
assembled
determination
fellow
index
judicial
mohan
originally
participating
recorded
##ab
##iling
65
advice
bed
chose
hot
judgments
kaadhal
liberty
mandate
primary
sp
##ants
##ena
##tu
1960s
arabia
ashamed
blocked
cars
famine
female
hid
movie
nearby
soldier
studies
transformation
willingness
##od
antidemocratic
distribution
finding
gap
ghost
reconstruction
supposedly
thomas
##eb
##tly
agreements
bharath
considering
corn
easily
flight
founding
instance
ourselves
peaceful
sans
surface
tactical
undermining
##burg
##ics
actual
karunanidhi
lebanese
ppp
smite
stranger
whilst
##ani
##olved
accident
arrangement
bless
buddhist
confederation
contain
dominant
forum
ideas
opponent
patients
personally
sacrifices
sequence
ships
yugoslavia
##hal
##ina
##ius
##lish
##ome
##oned
angeles
channels
classes
enrichment
evident
jayam
kayts
mine
notes
outrage
rail
readers
##bon
##cle
##karan
##uck
bin
branch
electorate
fundamentally
instability
intends
meaning
naked
paramilitary
primarily
pursuing
ratnam
removal
rulers
socialists
spring
tendencies
wash
##cture
##kin
##nces
breach
communalism
element
escaped
interested
krishna
laden
length
physical
positive
promoting
serves
warnings
##30
##ave
##nder
##rge
add
adviser
count
damaged
denouncing
eaten
extension
gained
grace
longstanding
nice
proper
reformist
resign
squads
zionist
##lan
##lation
##nate
##ship
billa
constant
credibility
ideological
incense
inspectors
justification
pact
resolved
speeches
vehicle
##cious
##ew
##sure
backward
connections
demonstrates
egyptian
estimate
firstborn
legitimacy
mgr
microsoft
obviously
potentially
productive
puppet
resort
sangam
selling
taught
tiny
##dhu
##mic
##sp
##ulation
covering
cynical
egyptians
insurgents
lion
miles
mortgage
spend
tent
vain
##cated
##rt
everywhere
jhu
outlook
pointing
preventing
representing
sinhalese
##df
##fer
##teen
affair
border0
ear
materials
rejection
shadow
shit
thank
ussr
##ings
##jpg
##ony
accusations
critics
disastrous
drastic
intent
passing
pictures
politician
protested
suit
tied
tradition
unconditional
weekly
##outs
brussels
distributed
doctor
dominance
dubbed
imposing
lawrence
provocation
settled
shah
sinned
underscored
##een
##its
##ppan
##pted
##ws
enjoyed
neighbor
partnership
projects
replace
sum
turns
wearing
##dp
##gen
##ik
##oy
##urs
bandaranaike
cease
dealing
depression
discrimination
dismantling
exception
experienced
fights
golden
grew
hailed
intellectual
internationalism
lingusamy
manifesto
negotiate
notwithstanding
plus
pursuit
schiavo
woe
##aa
##wards
actively
assyria
beautiful
box
contained
grant
improve
intimidate
postponed
publicity
related
rely
rumours
sharif
spoil
stations
surrounded
video
villepin
walls
##bel
##lay
##ror
##ump
agriculture
banner
computer
depart
indicate
leaves
pair
prayer
provision
scores
signal
slay
transnational
via
vincent
##nia
##ool
37
arrests
consensus
crackdown
equivalent
exists
features
giant
jyotika
maintaining
motivated
ohio
sweeping
tibet
transformed
violation
##pping
1993
absalom
beauty
besancenot
collapsed
delayed
disappeared
effects
fdp
finds
glamour
horses
insist
involve
mccain
percentage
plight
pull
teacher
traffic
troop
##ker
##ras
##side
##ten
dry
flock
ie
midst
missing
negative
pulled
rebel
saakashvili
selvaraghavan
shared
shed
sometimes
speed
undoubtedly
viewers
##com
##lined
##und
##uous
arrangements
conducting
hate
heavens
hebron
link
lowest
milosevic
mohanlal
monthly
quality
staged
studios
trading
worsening
##oning
affect
artillery
bankrupt
counted
damascus
deepavali
draconian
escalating
fbi
household
ice
insists
interviews
israelis
kennedy
kids
marxism
ought
raid
requirements
shriya
shtml
sore
steel
strikers
subjected
supports
surveillance
underscores
weapon
##hes
##ick
##ifies
##io
##ko
##vel
absence
deadline
knowing
occasions
opportunities
outbreak
seeman
suspected
tears
##ama
##ances
##ars
##ell
##gam
##long
##more
##posing
##ses
##ua
##wed
blue
collection
deliberate
destroying
eve
explosion
girls
intellectuals
mentioned
murdered
participants
perish
serbia
tendency
wickedness
##ca
##cher
##lance
##ria
arguments
beaten
beloved
charles
consumer
dark
duty
falls
gilead
heat
listened
periyar
##aiah
##lin
##nation
##ren
##ried
##scale
##set
##sted
##tles
1983
abide
aishwarya
applied
conspiracy
csu
emerge
facility
male
perfect
permitted
pledge
portugal
raids
returning
sectors
securing
subsequently
systematically
talent
##iting
##law
##oes
apparent
chariots
controls
disputes
enable
expanded
leon
minor
regulation
script
seize
taiwan
##ias
##lock
##mination
##party
##rade
apply
appropriate
bharatiraja
communications
convinced
fill
invitation
isse
leads
oru
palace
ruler
sale
statistics
tear
technical
trained
##by
##hing
aspirations
assumed
berlusconi
catastrophic
colleagues
dasavataram
determine
equally
hence
location
longterm
militarily
prabhakaran
regardless
reveal
salaries
shame
stating
technicians
uprising
##ctive
##dle
##ever
##gue
##ining
##jah
##matic
##sy
##uated
##uel
1990
approved
birth
bonds
boom
connected
distributors
driver
globalisation
instrument
interventions
intimidation
morrow
olmert
pretty
products
rebellion
signing
transfer
##bo
##cting
##mise
##rds
##rous
##rts
backs
belief
ccp
ceremony
chandrika
continually
dramatically
fierce
geopolitical
gun
planet
punishment
replied
stepped
sustained
universities
##ger
##iss
##val
##vised
banners
bloc
captains
correct
debacle
hari
limits
priority
sites
survivors
tongue
##ament
##ara
##aram
##aves
##dom
##kara
##stan
##tra
48
afford
bureaucratic
card
chrysler
confident
consumed
enjoy
execution
illusions
implementation
jeroboam
monitoring
noise
nssp
oligarchy
oxen
plunged
pm
test
##aran
##az
##cial
##inated
##lah
##ploy
##rive
betrayed
breakdown
combination
commanders
deputies
earn
featured
garment
introduction
performance
ramesh
sentence
strip
tenth
unpopular
whereas
##bit
##bling
##des
##ery
##hy
##int
##ller
advocate
anointed
debts
dominate
eager
fuck
genocide
imports
kapoor
naan
papiers
presently
reducing
regards
residence
seemed
serving
straight
tents
watching
##ax
##aya
##gate
##no
##rised
##rum
##ssed
##tated
##ution
##via
bulk
councils
describing
farm
fees
flow
garments
gore
hunt
installed
investigations
keen
learnt
marks
mobilisation
mounted
obliged
rent
ruthless
separation
systematic
##ada
##athan
##ect
##fication
##gated
##lines
##orate
##ose
##tt
42
analysts
county
criminals
england
indictment
nadigar
opportunist
picture
precedent
predatory
refuse
republics
sandhya
scandal
settlements
singapore
suitable
survive
worthy
##ference
##pu
##ther
##vam
arbitrary
argue
artists
aspect
boss
bullock
campaigning
detroit
earned
elder
enterprise
insurgency
jack
maoist
marines
nazis
pit
raw
scottish
worried
zeitung
##cal
##cent
##ium
##mad
##riving
##si
boat
carefully
en
mid
mistake
oscar
planes
proud
quit
stationed
tactics
unlike
waves
zapatero
##au
##coming
##dmk
##ex
##nts
##ugh
##xed
alike
babu
contributions
distance
dutch
forest
forgotten
gaullist
layoffs
michigan
mirror
novel
pain
plain
pleased
reveals
suggest
undermined
withdrawn
##ptive
##tled
##unch
ahab
bay
beat
broadcast
challenges
completing
guys
handful
heed
historically
instruments
intervened
plague
psoe
reflect
rudd
selected
sensitive
storm
##ash
##hon
##nance
##oon
##rity
1992
afternoon
armies
assessment
aznar
committees
economically
fixed
game
homeland
jpg
lady
malavika
milk
ocean
pillars
possibly
privileged
reward
samaja
savings
skin
stateowned
tragic
trend
unlikely
vasu
whip
##avan
##gling
##market
##nam
##pose
##rai
##ssion
##ys
bombardment
ceo
contributed
cuba
definite
divert
drawing
engage
esau
helicopters
movies
petroleum
productivity
sama
shore
tea
typical
unification
##lets
##mann
##nathan
##tan
##wide
ar
balachander
bowed
breadth
condemn
continuation
core
discredited
flood
helicopter
imagine
jasmine
languages
mp
passage
photo
quarters
rallies
revenue
rooted
targeting
thrust
utter
##ean
##gged
##hya
##ination
##samy
##uation
applications
campaigns
canadian
concession
concrete
curse
dan
dramatic
earthquake
edge
expressing
glad
guards
ill
occupying
pour
produces
resolutions
riots
route
sadr
stimulus
verdict
yuvan
##ferred
##graph
##llah
##oms
##ota
competitive
consequence
contradiction
exclusively
households
isn
kodambakkam
ouvriere
owner
ownership
park
reading
reiterated
strengthening
thither
turnout
##ncing
##pts
##zation
acknowledge
biological
chiranjeevi
cloud
contribution
expand
hyderabad
lamb
operate
ossetia
parthiban
personalities
provocations
resigned
sundar
wherever
wije
##imation
##mani
##ously
##rable
adequate
anc
author
autonomy
colin
colonel
conquest
crude
functions
ilayaraja
indicating
legislative
lots
maoists
recognised
retain
slogan
suspended
teams
transform
trincomalee
unleashed
warfare
##ature
##city
##over
##tail
bureaucrats
communities
declining
desert
epdp
generated
goats
guaranteed
indifference
islamist
loud
madrid
pitched
raises
seekers
sonia
supplied
urging
##cating
##eds
##ein
##kh
##zer
1968
accepting
announcing
branded
cancelled
corner
declares
dreams
finalized
hutton
nda
page
panel
perarasu
socially
src
stead
sudden
trapped
troubled
##har
##ition
##lla
##ological
##rates
advances
ahmadinejad
amidst
announce
barack
calm
celebrate
cells
closing
gang
idols
indicates
kabul
koizumi
lesson
linen
mahendra
misery
permit
predecessor
provoking
rcl
readiness
refusing
regularly
relative
satisfied
scattered
scotland
suggests
track
viable
##aid
##iled
##kal
##lai
##lu
##oring
##our
##rained
asean
assume
bachchan
condoleezza
devastated
el
executed
flew
focused
fruits
inauguration
indonesian
interesting
involves
lee
martin
quick
reputation
richest
slow
suppressed
talked
thailand
unknown
##alam
##arry
##ended
##eving
##fall
##government
##itation
##mar
##ology
##umes
boys
canaan
caste
chambers
consumption
cup
discovered
everlasting
expenses
familiar
flag
ig
independently
interviewed
maintains
normal
predominantly
questioning
risks
rod
rushed
singing
sympathy
thoughts
victim
##fire
##ibility
##lity
##oi
##ored
##pi
##ree
##ulating
33
38
activists
attract
balkans
balu
capture
chain
commerce
consideration
criticized
depends
everybody
gopi
inspector
interrogation
liberties
lips
mechanism
mosque
mostly
nathan
options
plane
pose
purchase
purely
respectively
rubber
thatcher
tom
##75
##ees
##ill
##most
##ume
##urse
##wn
alliances
appealing
bones
cinematography
excuse
explicitly
firing
illinois
imposition
injuries
insistence
jose
likud
motors
nagar
petty
postal
preserve
rai
reckless
refuge
sphere
##ang
##ats
##fected
##hoods
##ix
##lead
##pent
##pm
##tam
accordingly
counterparts
economics
existed
exposure
harvest
maximum
minorities
petitions
populist
receives
rivers
silent
simple
souls
spokesmen
syrian
tower
waziristan
##ams
##cover
##cription
##dha
##dies
##here
##ically
##ilities
##ined
##ins
##nting
##orn
##wood
amendment
aspects
bhavana
chidambaram
code
deficits
etc
hu
mariyadas
opposes
panic
prashant
retreat
sacked
san
secular
severely
stretched
threw
tiger
trotskyism
upset
wings
##avi
##nah
##tz
##uded
1948
36
abandon
advisor
challenged
enron
fatah
fly
garden
ghraib
hartz
incomes
pharisees
predicted
rises
root
season
solve
speakers
surprising
throw
wimaleswaran
yours
##ards
##ared
##ira
##lantic
##ntly
##oo
##ots
##secute
##ux
advocated
affiliated
asserted
badly
ballots
boats
conception
dad
diplomats
encouraging
endorsed
g8
ganesan
greeted
hesse
implementing
machine
mankind
naturally
prophesy
restoration
selection
shield
succeeded
surrender
tasks
waging
##ape
##dled
##ird
##kanth
##pense
##stration
aamir
artistes
arun
battles
confronts
dear
deteriorating
drove
feeling
gentiles
inability
investigate
junta
manager
map
meantime
prop
returns
reuters
temporarily
##17
##aire
##fying
##iles
##san
##tch
##week
anyway
brutality
constitute
expanding
expose
freeze
hated
hidden
inadequate
jehoshaphat
lucky
metres
notably
penalty
polanski
posted
responding
revenues
smell
spiegel
spreading
stunt
##bar
##dence
##khar
##pel
##plication
##see
##tar
##trated
absurd
advocates
assert
causing
copies
embrace
eta
fish
mere
modi
ms
murders
newcomer
photos
ports
privatization
raj
remnant
shekels
starts
universal
upcoming
vessel
vulnerable
walking
##ac
##ene
##erry
##ike
##low
##rey
##tence
##uthu
ain
custody
dedicated
display
elderly
eliminate
employee
exile
fortunes
gospel
gysi
instructed
judged
karnataka
metall
negotiating
older
possessed
principled
promising
proportion
prosperity
sealed
suresh
unstable
useful
yuan
##atic
##ches
##ci
##fection
##ield
##iest
##ipe
##loth
##ported
##rn
##ronic
##sight
##ture
##zar
allawi
angela
atonement
communiste
crush
describe
detailed
dictator
dispatched
dossier
edom
expenditure
exploiting
finish
hills
hoping
intend
karthik
leaflets
legally
militias
papers
records
rs
siege
slogans
sponsored
suspicion
thamizh
touched
##12
##aking
##ao
##ception
##dra
##gic
##hour
##ight
##ign
##imal
##pass
##rajah
##sse
##vity
##voked
##wal
altogether
bail
coordinated
flocks
gift
incumbent
investments
lionel
maintenance
mammootty
manmohan
mobilization
moon
observe
posters
revealing
revive
sharing
sixth
tank
tokyo
urgent
venkatesh
veto
virus
##aded
##aging
##dity
##eer
##ern
##nding
##pled
##state
##trick
##unt
anywhere
atomic
calculated
catholic
complaints
controversy
conversation
cooperate
deemed
devastation
dragged
frustration
imminent
iv
learned
margin
nila
organise
outset
portrayed
rumour
scope
stronger
swore
veil
width
##50
##ale
##ariat
##arya
##dal
##fp
##gh
##going
##grade
##ground
##ig
##mo
32
amnesty
arranged
bears
comfort
confined
courage
crown
dmk
fighter
indiscriminate
neighbours
online
pongal
prasad
rejects
secured
selva
st
sworn
virtual
##14
##hen
##ils
##kers
##lessly
##light
##nch
##page
##ret
##shing
##sin
climax
column
conclusions
conservatives
crises
desired
drug
fury
gotta
hits
homeless
lutte
marry
messengers
paruthiveeran
pressed
ranil
reception
recognise
remarkable
reproach
stable
stanley
teaching
vavuniya
violations
##70
##bal
##cified
##cratic
##eal
##head
##hur
##ita
##ppu
##sion
##skar
##tained
##the
##ura
##usted
1979
administrative
competing
condemning
deeper
ensuring
forthcoming
frequently
genuinely
grip
healed
indefinite
inspired
kirkuk
maliki
method
mobilise
nobody
objectives
payment
peasant
protecting
protestors
publish
pyongyang
teeth
usa
##asan
##bert
##ceive
##ei
##lers
##lls
##orm
##ourn
##power
##pting
##rice
##ser
abominations
absolute
adopt
afterward
bhagyaraj
blast
blockade
cnn
coastal
colony
component
constituency
defined
elementary
feels
fillon
firmly
noting
premier
pressures
prisoner
proceeded
professional
programmes
rings
routinely
saran
swiss
tour
##15
##ace
##and
##chs
##ear
##holders
##hs
##ired
##makers
##pan
##rint
##tai
39
addressing
ahmed
allows
ammon
bankers
bolster
bridge
campaigned
factors
hatred
heritage
hired
kid
leaflet
leaked
locations
networks
puts
reuben
reverse
saravanan
shakti
summed
transferred
transit
underscore
widow
witnessed
##cts
##field
##ibilities
##ika
##itive
##maker
##night
##olation
##pur
##style
##vy
##win
1964
34
accommodation
advancing
attracted
axis
blessing
bond
bonuses
broadly
celebrations
characters
compete
dominique
drinking
environmental
exceeding
excluded
formerly
forsaken
highlighted
ignore
isolation
mao
menon
objections
padmapriya
pds
prasanna
remembered
screening
simran
sisters
slashing
studio
sundaram
titles
traditionally
treat
vanity
##ague
##backed
##hn
##ively
##mble
##ows
##riya
##rst
##teenth
##ular
##ulous
angels
application
conceived
despised
distribute
evolution
friendly
friendship
interpretation
lincoln
ministerial
mma
monarchy
mourning
origins
pace
pleasant
practices
precious
prize
profoundly
radha
resentment
shifted
somehow
stick
substantially
trespass
trigger
undertaken
website
wouldn
##ency
##gnant
##hine
##hp
##lf
##rel
##sekhar
##urious
900
arts
attending
awarded
chariot
closest
complicity
engineering
functioning
identify
illusion
indefinitely
indications
isolate
jim
mary
municipal
norway
prospects
sexual
sole
stir
swear
truck
##dor
##eve
##gues
##non
##nounced
##oles
##perative
##rical
##thu
##thy
1947
1981
administrations
agent
alarm
appearing
barak
beneath
cameras
certificate
charity
dow
explains
external
facilitate
foreigners
guru
integrity
journey
kremlin
lambs
leftwing
measured
na
nasser
neck
prey
rational
recalled
riches
rome
separated
settle
undocumented
wheat
##10
##20
##60
##ame
##bour
##cribe
##fi
##fl
##haya
##lot
##press
##secuted
##tter
##urugan
##ven
assertion
boards
chair
charter
cm
columnist
concentrated
constantly
copy
crore
dates
deregulation
ease
edition
explaining
fearing
figaro
ford
harassment
horse
issuing
ivory
kadavul
karzai
mathivathanan
motives
netanyahu
obstacle
origin
passes
populations
pre
racism
selah
shocked
shoulder
slash
store
strangers
tibetan
wonderful
##armed
##backs
##ifying
##lim
##lo
##lving
##nda
##onest
##owed
##position
##ugam
##venture
##vu
alienation
aligned
bigger
bluntly
bombed
canberra
chase
commentary
confirm
darfur
depend
entertainment
eurozone
expert
flour
galilee
generals
gerhard
heading
initiatives
ireland
jones
murdoch
phase
procedures
properly
recognize
respects
sathyam
tbilisi
underway
venture
warplanes
wonders
##77
##aj
##cco
##cus
##gle
##iram
##lave
##liferation
##lts
##orated
##ris
##rowing
##rows
##rp
##uish
##uma
##umcised
##vani
advised
affliction
anand
arguing
arrival
behaviour
bubble
estates
ex
findings
gordon
guest
horns
insecurity
jammu
lakshmi
levi
mitterrand
mobile
mutual
observed
onslaught
pleasure
protected
retaliation
superstar
sydney
tone
upward
waited
worry
##cure
##del
##dent
##ez
##ket
##lli
##puram
##rent
##tal
1967
acceptable
aceh
ancient
applause
bitterly
collect
considerations
contribute
destabilise
disgust
email
fails
fascism
flying
hypocrisy
ideology
impressed
lucrative
outlined
picked
procedure
scribes
slashed
smoke
specifically
texas
thirds
triggered
wild
##ari
##democratic
##fic
##iness
##ior
##mplicated
##ough
##roth
##uise
##uk
##vise
44
55
acute
assured
bernard
calculations
censorship
conceal
cursed
defenders
defiled
denying
drugs
examination
expelled
feelings
fleeing
frankfurt
fundamentalists
hierarchy
jericho
libya
ligue
miller
mood
pride
sequences
spare
stretch
successfully
suggesting
surge
theme
usbacked
womb
##board
##bu
##minating
##net
##run
##tation
##town
120
admit
amitabh
amorites
analyst
anticipated
appoint
ariel
bochum
careful
changing
consistently
consists
devour
disappearance
diseases
echoed
elijah
financed
g20
gad
gilligan
http
kuwait
liberals
loves
martial
match
memorial
nasa
philippines
pierre
placing
prisons
projected
reply
scenario
tables
territorial
visiting
wept
##dian
##minded
##ou
##oul
##ream
##sen
85
abuses
bachan
basque
concentration
continuous
difficulty
franz
granting
inner
intensifying
mate
mohammed
naturalsizeflag3
obey
palestine
passover
patriotic
perceived
presidents
rams
reliance
soil
solved
structures
subordination
suburb
sung
suppressing
survival
vaaranam
vicious
wear
weather
worshipped
##dous
##iable
##ook
##patible
##pired
##ption
##roducing
##rupt
##sekaran
##sf
##su
##tent
1950s
20th
academy
andrew
batticaloa
burma
burmese
caspian
chaldeans
challenging
cherubim
clash
compound
conventions
convicted
credible
delight
diplomacy
forecast
forgive
harris
harvard
impending
introduce
kunduz
miners
object
policemen
prayed
promotion
releasing
securities
serbian
swept
transition
voices
withdrew
##ades
##air
##ase
##cended
##ctured
##hima
##ken
##level
##mplicit
##nity
##orous
##pling
##so
##tted
abkhazia
appalling
benefited
breath
cards
comprehensive
continental
contingent
detail
devil
earnings
empire
explosives
footage
import
jumped
passengers
perform
privately
proposing
register
revelations
revolutionnaire
row
sad
sanctify
statue
succeed
telegraph
theoretical
uses
vehemently
##aja
##ander
##aned
##antic
##clusion
##ctions
##ica
##ich
##ident
##point
##rage
##rap
##rat
##tting
##uid
##ulent
##uo
##yadu
associations
athens
authoritarian
begins
brazil
burdens
buying
chaos
collected
cp
dilemma
dirty
eligible
essence
marine
marx
moderate
monopoly
norwegian
organize
palm
pillar
pokkiri
pool
ptcl
quiet
rank
reelection
retained
saints
sasi
sorrow
spoiled
staying
substance
sums
talents
turmoil
upf
voter
wolfgang
writers
##action
##aining
##american
##bles
##cracies
##cuses
##dhi
##ea
##founded
##gies
##ishment
##kha
##list
##mal
##mber
##nse
##parable
##surrection
##vers
##version
##verted
album
answers
awareness
brink
chains
decree
distress
drama
fewer
harm
jackson
liked
loyal
memory
muntefering
narayanan
obligations
partition
pasok
reliable
romania
seventy
sow
testify
tolerate
unified
vague
vietnamese
vine
washed
weakness
wounds
##ald
##amp
##eus
##hammad
##itan
##kan
##pers
##ptation
##taking
##ug
##uit
##vations
abimelech
arises
balaam
banning
belong
bethel
bharatiya
brigade
captive
celebrated
citizen
classified
compounded
comrades
consistent
drought
enforce
engineer
envoy
falsely
financing
hang
improved
items
keerthi
library
magan
manage
monitor
orleans
ostensibly
pkk
rivalry
scared
seizing
simultaneously
sits
structural
suspect
telecommunications
tension
traditions
tribute
vandana
venezuela
##cation
##cluding
##dated
##gai
##haam
##hman
##ips
##logical
##rization
##sekar
##vert
##vision
alain
amounted
appreciation
balaji
basu
cameraman
cap
celebration
chiefs
cinematographer
cluster
comparison
depth
equity
expensive
faithful
guerrillas
holiday
inaugurated
intensification
janata
kindness
obstacles
prevention
priya
scientist
secondary
shechem
submit
suggestion
voiced
##76
##airs
##aped
##bor
##ceded
##clusive
##dic
##ford
##iv
##lass
##load
##lus
##mity
##oking
##rition
##rom
##tings
##tling
agitation
alkatiri
aristocracy
asses
baptized
buildup
chandramukhi
couldn
covert
czech
denounce
deportation
devoted
doubts
downturn
eastward
eleazar
henry
honey
jointly
junior
kim
kindled
kouchner
ldp
lenin
looting
makers
mallika
mental
murali
nixon
oath
pattern
plural
prakash
radhika
reactor
recovered
relied
roll
siva
stocks
successor
takeover
tense
trumpet
vineyard
wasn
william
##ake
##aring
##aw
##date
##dly
##endra
##igned
##ives
##kia
##len
##lied
##lition
##lon
##mai
##mbled
##ndition
##ogi
##olly
##passed
##pes
##ply
##rew
##una
##yed
1987
43
abner
accelerated
accumulation
applies
avoided
bars
besides
blatant
brazen
completion
convince
deadly
destabilising
disputed
emphasised
extending
foremost
guess
inspections
keeps
landed
maker
mines
miss
phenomenon
presenting
privileges
refuses
resume
roh
sand
stress
stuff
supremacist
tacit
torn
travelled
urumaya
zedekiah
##38
##alf
##alia
##ban
##ek
##fficient
##green
##house
##ilize
##ku
##lm
##mply
##nees
##oash
##ordinating
##rg
##ttering
##use
##vage
##workers
##yam
49
acceptance
allocated
appointment
belonging
brand
casting
christmas
constitutes
contemporary
credentials
descent
doubled
exacerbated
examine
fraction
funded
giants
governmental
intensive
jeevan
lands
legacy
lending
lo
notion
observer
opinions
oslo
practical
preached
recover
refer
rejecting
sooner
string
subordinate
varma
violated
whereby
##aning
##ati
##dicted
##eved
##hai
##istan
##oe
##perialist
##uc
##uspicious
##well
##yi
1953
atrocity
bashan
blemish
bundestag
bury
checkpoints
contains
countenance
desperately
enthusiasm
escalated
exit
fit
frank
funeral
goals
integrated
invested
karunaas
kissinger
org
papandreou
pilots
popularity
poses
powersharing
ride
ring
salt
secretly
sen
shops
thai
undertake
vairamuthu
vow
##25
##ane
##bha
##cker
##cket
##dr
##graphy
##inted
##ison
##kle
##mile
##ocal
##paid
##quiring
##quities
##ride
##than
##uan
##ulators
##unction
##unk
##ware
1971
46
abundance
accounted
accusation
align
anybody
authors
bangalore
coal
coordination
describes
dismissal
entrance
fearful
handling
highlight
karuna
laying
mcchrystal
minimal
mining
nebuchadnezzar
neoliberal
output
philip
photographs
reflection
resident
rounds
separatism
sudanese
survived
tortured
venue
veyil
watched
yoke
##amy
##ast
##eera
##etic
##grate
##guard
##hud
##lash
##ledging
##prove
##rger
##trition
##ttai
##urb
##uth
##uting
##vals
##vin
attendance
balasingham
breakaway
businessmen
camejo
carter
client
departure
disarm
discussing
dispatch
eagerly
equipped
explicit
imprisoned
institution
invade
lengthy
listed
medicine
munich
pages
petrol
prosecutor
provisional
rathnam
shelter
silva
slightly
software
straw
trailer
unprovoked
whereof
##33
##ania
##ares
##dab
##dged
##elected
##force
##gory
##gram
##hibited
##kes
##llai
##olve
##onies
##oral
##ssions
##tating
##terrorism
##xy
95
autonomous
bureau
clothed
consciously
dig
dog
dried
dual
endorsement
finger
globalization
guns
mexico
plo
pogrom
polarisation
premises
propose
remote
replacement
restricted
resumption
revenge
revolt
rocket
sacrificed
sanctioned
sepulcher
smitten
specialist
stages
studied
subprime
tonnes
wanting
##40
##art
##athi
##bottom
##cist
##dation
##ement
##ffs
##ient
##ila
##isan
##iz
##lanka
##opulated
##rajan
##rapped
##reed
##rong
##soever
##tched
##ths
##work
1980
1988
41
argentina
artist
bangladesh
belongs
bills
communication
correspondent
cpe
cuban
deprived
dictates
dissolution
escalate
europeans
fox
gifts
guarantees
haste
hillary
interpreted
karthi
laban
lifting
magistrate
najaf
nowhere
occupations
organisers
oriented
outstanding
pandian
respected
roughly
rubble
shaken
spy
strict
syrians
trusted
unacceptable
visits
vowed
wolfowitz
www
##adhavan
##amar
##capitalist
##cess
##cessarily
##chief
##cuting
##gers
##hips
##iped
##mended
##nis
##piece
##port
##tune
1978
aids
apology
bogus
consume
cynicism
defender
demonstrating
dying
emphasis
employing
fulfill
glorified
guantanamo
haitian
hearings
impression
inspection
installation
invest
investigating
islam
jobless
kashmiri
kuselan
lit
morgan
nair
parti
punish
reasonable
rests
rooms
schwarz
singers
slmc
slmm
spying
struggling
tarun
throwing
unique
vastly
vel
veteran
vishnuvardhan
warn
##acle
##ariah
##ciated
##dden
##door
##eous
##gin
##jiang
##kel
##ney
##nu
##owned
##rish
##ula
##wan
160
1945
47
abdul
aerial
afterwards
asa
ba
baal
counting
cricket
criteria
der
deutsche
elephant
exact
forefront
grass
graven
harsh
heightened
hue
invite
jai
johnson
judiciary
mediterranean
messages
nominated
opens
osama
ox
paulson
realistic
reddy
resist
restart
roof
singer
sockets
sovereign
symbolic
thereon
unnamed
##ahar
##bby
##care
##cast
##diction
##ech
##encies
##ero
##gnar
##heit
##hel
##jee
##kistan
##lene
##rick
##rify
##riot
##rits
##tein
##timate
##tone
##truct
##uri
56
abram
admission
airlines
antitamil
arsenal
betrayals
boasted
bright
clothing
deposits
des
dropping
easier
elect
exalted
expresses
hail
hiding
honour
indignation
inflicted
influential
lamp
lasted
lend
mike
mix
mubarak
ninth
planted
plunge
prevail
redeemed
repeat
sarah
sars
satellite
shape
shattered
shortage
slump
switzerland
text
unleavened
yemen
##atory
##atures
##cally
##cise
##colonial
##ev
##fused
##hra
##lique
##lored
##making
##paired
##pter
##qa
##rect
##sions
##ster
##tham
##tte
##yum
58
academic
aggressively
attac
bearing
belgian
borne
broadcasting
capitalists
cio
circuit
closures
consent
crowds
cynically
devils
digital
elbaradei
farmer
fault
favourable
games
guerrilla
humans
legs
literature
olivier
pervez
presided
proclaim
pt
quietly
ravichandran
redeem
respective
restraint
rupee
satan
shuttle
sparked
thick
token
troubles
window
zardari
##28
##aged
##ages
##ainable
##bing
##cable
##critical
##duction
##erve
##gging
##itating
##lame
##oid
##ong
##oured
##pair
##posed
##pse
##ress
##rically
##rious
##rit
##ruce
##tious
##ubling
##wara
54
afflicted
antagonisms
asset
basra
beard
blessings
brandenburg
characterized
checkpoint
chile
commenting
concentrate
conceptions
considerably
defeats
destructive
devolution
devoured
dick
dowry
dressed
duke
embraced
formula
fortress
franco
freely
guests
gunmen
happiness
idf
lacked
likelihood
mixture
normally
packed
peiris
performed
posture
presents
probe
raiment
recognized
recording
ruthlessly
sabotage
seal
seizure
shilpa
speculative
visa
vladimir
wanna
##36
##asing
##constitutional
##dling
##garajan
##gression
##herent
##iary
##iel
##if
##kum
##lawed
##locks
##minated
##oman
##ona
##onia
##rified
##rust
##tunate
##vocation
abstention
aged
containing
creations
demagogy
duet
facto
francisco
hassan
hungary
hungry
imprisonment
jathika
kaczorowski
karan
kurds
louis
mail
mukherjee
observers
oecd
offence
peasantry
portray
raju
relentless
remembrance
shots
shouted
skills
thinks
transportation
unclear
von
##73
##74
##80
##82
##adi
##burgh
##cision
##clude
##elect
##ently
##erd
##form
##hari
##hibition
##hop
##lace
##marked
##nai
##nea
##ozhi
##quire
##rim
##roads
##shek
##sity
##ulates
##umar
##vening
##xious
62
abc
accounting
afar
almighty
arctic
auken
behavior
bombers
cleric
coasts
contested
controversial
corners
crying
damsel
defensive
dgb
dictated
dismantle
favoured
fever
fig
highway
horsemen
inherit
kingdoms
lake
liberalism
locked
managing
mobilised
perished
persecution
pledges
polling
reconciliation
reflecting
rendered
shortterm
simeon
smoking
studying
terri
ticket
usp
weakened
zealand
##appointed
##ckers
##fa
##fuse
##haran
##ima
##kasi
##logy
##lunder
##made
##mented
##nale
##nesses
##np
##peration
##qawi
##rea
##read
##rors
##taining
##tional
##ught
##waran
1956
1972
98
abdullah
brando
briefly
bundeswehr
cancer
candidacy
clause
collaborate
collaborated
criticising
deterioration
elisha
enabled
engineers
examples
exploded
fascistic
frequent
hire
jesse
lieutenant
listening
midnight
nakedness
narrowly
northeast
outlets
patient
pilate
poet
prodi
rama
react
reluctant
representation
samy
sanctified
sectarian
shop
slide
soft
solutions
stearns
suddeutsche
surprised
testing
theater
upright
whipping
wilson
##achi
##agan
##aires
##bitant
##bush
##cia
##cp
##fies
##holds
##keeping
##lates
##lein
##part
##pf
##quently
##rising
##sters
##ups
##vine
##wansa
##water
##woman
##ycle
68
achievements
adam
airbus
anthony
arabs
autumn
azhagiya
bangkok
citigroup
cleared
colombia
condemnation
congressman
conviction
cook
default
diplomat
drastically
expulsion
forming
halted
hanging
hans
jan
joe
justifying
lists
longtime
makeup
narrated
netherlands
oneday
operatives
opportunism
oruvan
repudiation
restored
revival
sanjay
serial
shake
slept
spokesperson
staggering
supremacy
variety
whenever
wholesale
winter
##aalai
##akim
##ased
##class
##eak
##eded
##lature
##laves
##ndi
##oboam
##scribed
##tility
##wat
##yaadu
140
51
52
aren
beating
breakup
canaanites
caucasus
communism
crazy
dancing
degeneration
flows
globally
impeachment
juppe
lasting
lesser
loins
mahesh
minds
overwhelmingly
packages
productions
realized
reap
recruitment
removing
requests
routes
satisfy
stalled
steady
suharto
thirumavalavan
travail
treasures
trials
ultimate
ultimatum
veterans
##anai
##arta
##bb
##beria
##cience
##das
##ducted
##due
##hao
##harani
##hor
##iding
##iment
##lain
##nian
##rosion
##rted
##rth
##sible
##suriya
##tude
##unning
##ural
##vp
##vre
125
1949
1984
480
64
aflcio
allowance
altars
approaching
azariah
barred
barrier
bilateral
cannon
catch
cfdt
chalabi
colonialism
conclude
countless
decay
democratically
dependence
dogs
enacted
ephod
farreaching
fifteen
gdl
gotten
habitation
hears
hiv
indigenous
jiang
jintao
learning
lights
mad
memo
migrants
militancy
multi
murderous
northwest
objection
pablo
patrol
pending
pick
poo
posturing
preliminary
proposes
racial
realise
rebuild
references
rockets
rush
salman
shelling
shoulders
subramaniam
tonight
uncle
unexpected
unfolding
upheld
vengeance
##ado
##ainty
##ank
##ark
##biah
##ccupy
##ciate
##cute
##dia
##hmi
##idation
##inating
##inct
##iverse
##lege
##liant
##lining
##lis
##mail
##mart
##nko
##nunciations
##nvened
##ogists
##ologists
##rah
##ribe
##sive
##thing
##tiny
##ttu
##turn
##yake
350
adapted
alienated
angrily
anna
answering
assassinations
associate
ceased
citizenship
communalist
corps
crops
crossed
dais
dawn
dominion
dubbing
eleven
gangs
ghajini
guided
hatton
inquire
intentions
intolerable
jehu
likes
mingled
ministries
mortgages
multiplied
muthukumar
nationally
obtaining
olive
pabloites
partly
perspectives
prevailed
prompted
purchasing
qualified
rating
resorted
rid
schwarzenegger
slightest
snow
soaring
solely
spelled
stephen
synagogue
tougher
transnet
unfortunately
ward
warships
wins
##aru
##ball
##bath
##bbed
##bid
##bil
##chenko
##ckings
##dication
##din
##dities
##haz
##hr
##iran
##ises
##kas
##ksin
##las
##lorious
##nar
##nvenient
##ohl
##orsche
##rains
##rowed
##rrels
##thai
##thil
##torian
##wati
##weight
57
acquired
assuming
breaks
cedar
characterised
chavez
correctly
disrupt
distributing
doings
dwelling
educational
eliminated
enabling
favorite
fuelled
fun
gaining
handing
hunting
ignorance
improvement
josiah
jubilee
lawful
michel
naphtali
permits
polluted
prevailing
prosper
rebuke
rounded
sa
searched
separatists
sivakumar
srinivasan
stream
tender
thin
trains
treason
weep
wells
yen
zionism
##!
##"
###
##$
##%
##&
##'
##(
##)
##*
##+
##,
##-
##.
##/
##:
##;
##<
##=
##>
##?
##@
##[
##\
##]
##_
##`
##|
##~
##¡
##¢
##£
##¤
##¦
##§
##«
##¬
##®
##°
##±
##ð
##‘
##⁄
